E4
EA
1E
16
21
E4
1A
19
E9
DE
1E
E4
0A
E6
19
21
21
15
19
EA
DE
E9
15
15
DE
1E
E4
E0
DE
1A
EA
2B
E6
21
EB
16
26
E6
16
1E
EA
E4
D3
D3
21
E6
21
E0
E0
F6
0E
1A
26
1A
DE
1A
19
11
11
19
E4
2B
1A
16
C7
EB
E6
1A
32
0F
16
0C
0A
E9
1E
F3
26
1E
F8
E0
D9
E6
F7
E6
EF
E4
F5
11
12
E9
EB
E4
11
ED
EB
E0
21
05
2B
E9
D3
E6
0F
16
26
21
21
12
21
12
DE
D9
D9
F1
32
16
1A
19
0F
E0
1E
12
E6
19
1A
0A
DE
EF
DE
ED
E6
16
D3
E9
E6
E0
32
E9
D9
E6
19
F7
E6
32
DE
DE
1E
21
EA
E4
F3
26
E4
E4
EA
21
E9
26
EF
1E
32
E6
1A
21
E4
E6
D3
E6
D9
DE
EF
21
1E
ED
1A
E0
21
21
E0
DE
15
D9
F5
1A
D3
EA
ED
E0
26
32
D3
E0
D3
08
19
E4
21
E9
12
16
32
D9
DE
1E
21
0D
21
EE
1E
D3
E9
E6
E0
0C
E6
D3
DE
EE
19
19
15
12
2B
26
DE
2B
E9
D3
E0
1A
16
2B
D9
F0
2B
16
21
C7
19
16
E6
16
16
2B
E9
E6
1E
FA
DE
1A
1E
F4
0B
1A
1E
21
B0
16
16
0E
EF
26
2B
12
1A
E4
1A
E6
E4
D9
26
1E
21
E9
E0
16
D9
15
DE
0F
1E
0F
E4
12
16
12
E0
26
19
F7
15
D3
E4
0E
21
E6
E6
0D
E0
E6
16
ED
E4
E4
21
0E
DE
E4
2B
1A
E0
12
21
26
D9
E9
1E
EA
19
E6
2B
D3
E4
19
D3
12
12
DE
D9
16
D9
DE
DE
E0
E9
E4
1E
1E
E0
12
E0
F3
E0
15
D9
F6
EE
21
26
F1
19
1A
32
12
0B
D9
D3
1A
0B
2B
E4
E0
E0
21
26
E6
12
41
1E
0E
16
16
32
32
1E
21
16
0A
2B
E6
26
FA
2B
E4
2B
E4
16
1E
1A
1A
ED
EB
15
21
16
1A
11
21
12
1E
DE
E4
E6
21
E0
E4
15
EF
0E
21
F9
E0
19
19
1A
ED
E4
EA
15
11
E0
21
D9
19
ED
2B
19
E0
E9
DE
E6
1A
41
15
19
E0
E6
DE
EE
ED
26
26
DE
15
1A
19
E9
F0
41
26
1E
15
DE
F7
0F
F0
E0
21
41
DE
32
1A
E0
E4
1A
1E
16
1A
E4
E0
2B
E4
D9
15
1A
DE
26
D9
1A
E4
EA
1E
D9
16
F0
E4
1A
26
15
E4
1A
D3
E9
1A
1A
E6
E4
E0
26
11
15
21
1A
26
2B
F5
1A
E4
E0
19
19
E6
1E
16
1A
EA
21
1E
D9
E9
EA
F9
D3
E9
26
ED
1E
E6
15
ED
2B
26
16
12
0B
2B
19
0E
EA
EB
DE
D9
0E
26
E4
0E
E0
1A
15
19
0F
EA
D3
DE
F8
E6
E4
EF
2B
26
DE
E0
16
19
16
E0
E4
26
F1
EF
F3
D9
19
0D
E9
2B
E4
0F
21
E6
D9
21
C7
1E
26
ED
19
E6
1A
DE
2B
1E
21
2B
26
2B
26
EF
E0
2B
E0
D9
E4
DE
12
E9
DE
E4
21
15
D9
1A
1E
F3
1E
15
EA
16
E9
21
E9
16
1A
1E
D9
EB
E0
26
DE
19
E0
E0
21
ED
E6
D9
E0
DE
0E
E0
26
19
26
2B
EA
1E
19
1E
21
E6
DE
16
E0
08
16
2B
DE
E6
26
D3
D9
15
EA
D9
D3
E4
0F
E9
E0
E6
21
E6
26
11
E0
E9
21
E0
21
1E
2B
21
E0
E6
1A
F3
1E
E4
D3
26
15
D9
D9
16
19
0F
21
E9
E4
19
E4
EB
16
19
E0
E6
32
D9
DE
15
E0
21
D9
19
26
E9
E4
E0
26
1E
2B
D9
21
E4
32
1E
1E
26
E4
15
E4
12
DE
E4
1A
E9
D3
16
2B
2B
26
2B
21
21
12
1A
E0
15
21
16
1A
2B
EA
EB
26
E4
E6
D3
E4
1E
1E
21
26
19
EA
E0
DE
21
12
0D
1E
E6
15
19
19
E6
E0
26
12
21
1E
F1
E4
D3
1A
EA
F0
E4
41
D9
15
16
0F
15
F1
DE
E9
EA
DE
E0
26
E0
21
12
E0
E6
E4
E4
2B
16
DE
EB
D3
E9
E6
E6
D3
0F
0F
1E
21
F3
2B
E9
C7
2B
DE
1A
E4
0C
1A
16
19
EE
19
DE
E6
ED
E6
1A
26
1E
D9
E0
26
1A
26
DE
E0
0F
C7
1A
D9
EB
26
12
15
E4
15
D3
21
E4
E4
16
D9
D9
15
21
D9
21
02
21
2B
E4
1E
E0
D9
ED
E0
F0
E4
1A
EE
E4
E6
19
E6
19
19
19
ED
E4
E9
DE
26
15
E0
21
D9
DE
E4
26
12
2B
E9
E4
E4
2B
E4
DE
F5
16
DE
EE
1A
E4
E6
1E
19
15
EE
F2
15
19
15
E9
11
11
ED
0D
1E
E0
E0
21
2B
11
1E
1E
E0
E4
12
21
2B
D3
1E
D9
19
2B
E4
E4
E0
E6
D9
EF
26
11
D9
1A
1A
19
26
EF
E4
E4
1E
16
E6
DE
D3
ED
E0
1E
16
E0
E0
D9
1E
F7
D9
C7
26
32
16
2B
E0
E4
26
2B
E0
ED
1A
E9
E4
EE
19
1A
EB
16
DE
D3
1E
21
C7
21
1E
EA
1E
EB
26
12
E4
EF
32
15
26
12
E0
E4
11
E4
1E
1E
11
19
16
16
E4
12
21
16
21
16
DE
EB
21
1E
E0
11
E4
19
EA
E4
16
F3
E4
DE
DE
12
16
E4
1A
12
D9
19
16
EF
E4
1A
E6
11
19
E9
0F
E6
EA
0E
07
15
E9
1A
E6
DE
16
E4
1E
E0
16
26
11
32
1E
12
ED
1A
E0
E6
0B
19
B0
15
21
16
15
1A
1E
1A
1A
E0
D9
1A
EA
1A
EB
E6
C7
E4
26
19
D9
D9
D3
DE
1E
1E
E4
DE
2B
15
21
1A
E0
19
E0
D9
1E
E0
26
19
E0
1E
32
21
D3
32
DE
E0
D9
D3
1E
19
1A
15
D9
D9
19
D9
DE
16
21
1A
1A
26
DE
F3
E6
03
D3
D3
16
26
26
E4
E4
F9
E9
F3
D3
E9
2B
16
19
D3
1A
15
E4
F1
D3
1E
15
1A
21
D3
DE
0F
D9
12
DE
EA
19
0F
D9
21
D9
19
1E
E6
26
DE
D3
ED
E9
EA
E9
0F
19
2B
ED
EB
DE
D3
C7
E4
32
E4
F3
E0
D3
E6
0C
06
32
D9
D9
F1
12
1E
F6
E9
1E
E4
0A
0F
E0
12
EA
EF
ED
EA
E6
F8
F2
16
D9
2B
E0
21
F5
DE
E9
E4
12
19
E4
1E
1E
E9
E0
DE
E6
E9
2B
F7
E9
0E
15
F5
E6
E4
32
16
1E
DE
E4
16
F7
1A
2B
EA
1E
EA
41
16
E4
E9
EB
E6
16
15
D3
F0
19
E0
DE
12
E4
1E
19
1E
21
E0
E0
E0
EA
E0
D3
21
DE
E4
16
D3
E9
1A
1A
E4
E4
32
26
EA
E9
26
E4
19
16
1A
E6
26
16
E4
E4
32
E0
DE
E6
1E
D9
E0
32
15
1A
D3
E4
1E
2B
21
32
1E
1A
21
1E
D9
E0
DE
1A
F2
1A
DE
E6
26
19
D9
1E
E4
E9
E4
11
EA
1A
12
0C
E9
E4
D9
21
EE
EE
19
1E
E6
1A
D9
D9
2B
E6
E9
E0
DE
E9
19
32
E6
26
26
E9
2B
21
E4
F0
1A
E4
D3
D3
D3
1A
1E
19
12
1E
D9
26
EA
D9
12
11
1A
16
D9
15
0F
E0
E0
16
12
26
1A
16
E6
21
D3
ED
21
1A
12
E0
E0
21
D9
ED
12
26
19
1E
0F
E9
32
D3
07
12
E0
26
0D
1A
E0
E0
F4
EE
21
21
D3
F5
DE
41
F0
EA
DE
21
F9
E9
DE
15
EE
E4
1E
D9
D9
DE
D9
D3
EF
EB
E0
21
15
E6
E4
15
E9
EE
D9
EB
E9
D9
0D
19
D9
E9
F9
D9
E9
16
E6
0D
21
1E
0C
E6
EB
21
2B
C7
1A
E9
1E
19
E9
21
15
1A
E0
E9
E4
E0
19
1A
21
16
26
EB
21
E6
21
26
16
11
D3
EB
F0
07
21
03
F4
F6
0A
08
11
0B
0A
F7
EA
F1
FA
0D
0D
F5
FB
0F
EE
F8
11
05
05
08
0F
0D
EF
0C
05
0A
0C
E4
F5
0C
0D
F1
F4
EE
F5
F5
F6
0C
0B
0B
FC
12
11
0C
F2
0B
07
F0
E9
0A
12
FF
0A
F7
0C
00
F2
F5
F6
00
0F
E0
0F
00
0B
0A
08
0B
0B
F0
F7
F7
F3
05
05
F6
15
FD
02
05
11
ED
F0
FC
F5
EF
FD
EA
16
F5
07
F5
05
F0
0F
0E
0A
F5
E9
F4
00
F1
F3
06
0C
11
07
F3
0E
08
0D
0D
0B
F4
E9
F8
F0
07
06
07
11
07
00
16
0B
0B
F5
06
0B
05
0D
F8
ED
0E
EE
0E
F6
FD
FB
ED
03
06
EF
EE
EE
F5
11
0A
11
01
F5
F6
0B
02
F5
F5
F9
07
02
F6
F5
F7
F2
0C
F0
0A
0A
0D
07
0D
FA
0A
0C
0D
07
16
F1
F9
F8
F1
19
0D
0F
E9
F4
F4
0E
08
FA
16
0A
FA
F6
F8
F8
06
EF
ED
11
F5
16
11
11
01
0A
F6
07
0B
0F
EF
F5
FC
05
EF
01
12
06
11
0F
F8
FA
EA
19
01
00
F2
0E
EB
05
E0
0F
F8
08
0F
0B
F1
FF
FD
05
ED
05
F2
F0
0B
F6
F4
05
0C
FD
F6
15
EE
F8
0D
00
F5
FB
05
0A
0D
0C
0A
07
0F
F5
EF
F9
15
05
F3
0A
15
03
F5
07
FA
F8
F8
EA
0A
0F
11
F5
03
F4
00
01
F6
01
F3
05
06
FD
0B
F6
05
12
FD
0C
07
08
0B
0C
12
FA
FF
0E
06
F0
F5
F5
FF
07
F1
F4
F3
FA
F8
0E
F3
FA
0B
0D
F8
03
FF
0B
F5
02
EE
FD
F2
FD
F8
05
FA
11
F5
03
F4
06
0E
0C
05
0C
0E
F3
07
05
0B
08
F6
12
06
0B
0F
07
0A
F5
05
11
FA
0D
06
00
FD
EF
0B
F6
FC
F2
0F
0B
16
F2
08
F5
F5
F7
00
0A
F3
0C
15
FD
06
0E
F6
F6
EF
E9
FD
11
0B
1E
06
EE
06
0D
F3
0C
0C
F3
03
EE
16
11
0E
EB
ED
15
F7
FD
F8
EA
FA
02
FB
F0
05
FC
F4
0F
0F
FF
EF
06
F4
05
05
0A
01
00
F7
08
FB
EE
F4
07
EF
E9
0C
0D
05
FF
07
F5
F5
FD
0F
F7
F3
EB
F4
0B
FD
F5
0A
16
F6
0A
08
F6
03
0F
0F
11
F8
05
F8
07
0B
0D
FA
F0
F9
F3
05
0C
F1
0D
F5
12
F2
0E
F8
F3
0D
F2
F0
12
ED
FD
F9
19
F9
EE
FA
F5
F7
F7
F2
05
F0
06
0F
F7
F9
07
ED
0A
0C
02
F3
F0
F0
F2
0E
0C
F4
0E
08
ED
FD
15
0D
11
07
F7
FD
EF
F7
0E
12
EA
FA
05
05
F2
0B
F8
F4
06
F5
EF
F9
0D
FD
02
06
ED
ED
EF
12
F1
FD
0B
F0
0A
0C
FA
FB
01
1A
EA
0D
12
EE
0B
0D
FA
F3
F5
02
F1
F5
02
F9
EE
F6
E6
F3
FA
F4
0A
1A
16
07
F9
F8
01
0B
15
F8
0C
0E
F5
F3
05
F7
F8
FA
FF
FA
F7
06
05
FC
F0
0A
F7
0A
F0
0B
EF
FA
0A
F3
FC
11
03
05
F3
F9
F0
01
F6
EF
07
07
FA
F1
FA
15
0E
FF
07
11
02
F3
FD
FB
08
F0
0F
0B
0D
0A
F9
05
F7
0D
F6
F8
0F
07
F5
02
FF
FA
F4
11
0D
0C
F7
F8
F6
0D
02
F8
0E
EE
0F
08
11
F4
F9
08
F3
0E
0B
F7
F0
ED
FB
0E
FF
E4
F5
12
FB
0F
E9
0A
0E
F0
F3
07
F1
FA
03
FF
F7
EA
12
0F
00
F1
12
0F
0E
05
FA
F0
0D
F7
FB
0E
0B
02
F8
F3
F8
0C
FD
FC
05
F8
FD
05
F5
05
0C
08
07
05
F5
05
F7
0B
0C
FD
F7
F7
0A
06
0C
08
05
0B
F7
FA
08
02
F8
FB
F8
FD
FD
03
F0
F3
F4
01
FD
0F
15
11
08
02
F7
05
0B
16
0B
07
ED
0C
FC
FC
11
19
0D
F5
07
0E
FD
F5
F2
1A
F8
0E
08
0D
F4
F5
08
F4
0A
12
F3
ED
0C
FA
05
08
F3
05
05
F1
0A
FD
05
01
08
FA
05
05
0F
07
F5
03
12
EF
F5
08
EB
F1
0E
FD
F2
FF
03
0F
06
06
F5
0E
0F
0A
FD
F5
F6
EF
0A
F1
08
F7
F5
FD
12
01
0D
15
11
F5
FC
0F
07
11
F9
E9
EF
F7
F0
F3
F7
EB
F2
F2
EE
F5
0E
11
0C
15
15
07
F4
16
EF
0E
08
19
0C
19
E6
0B
F2
0E
08
EF
EF
15
0C
11
06
12
12
07
0B
F6
F9
F3
F1
0F
0B
0C
0D
FF
0A
FF
0A
06
EE
F9
0A
07
EB
0F
F4
F9
0E
EF
0A
F5
FC
F5
0F
F5
F3
11
0D
FF
F1
F1
16
07
F9
05
F9
12
FA
F3
FA
E4
11
08
0A
F4
0A
08
F9
0D
0C
05
0C
FF
F5
0B
05
05
0B
FF
01
0C
F9
FD
F8
FD
06
FF
0B
05
FA
F4
06
06
F2
FC
07
FB
07
0A
05
05
F8
05
05
FC
F5
F7
F5
06
0F
F5
11
05
F5
07
0B
01
06
FA
FB
06
F9
08
07
F5
F3
F5
FF
FB
F8
EE
F5
EE
12
06
EF
FF
F5
FD
05
06
12
ED
05
F1
F3
06
EE
F1
F3
0B
05
15
F0
0C
0C
F7
F2
0E
FB
0F
0B
F7
F9
0D
00
05
0A
FC
0A
F1
E6
FA
F5
07
F9
F7
08
F0
08
F9
E9
06
07
F8
05
0A
0F
02
F8
F7
F3
F3
07
F2
FD
FD
F7
F3
0D
F8
0E
06
0D
16
FA
EF
07
EA
0C
EF
05
EE
08
0C
FC
F1
E6
F9
06
08
07
11
F5
08
0F
01
06
11
0F
F1
F3
15
08
F1
F2
F4
FB
F5
F5
0E
EE
EB
F0
0D
0F
08
0F
0F
EB
19
F0
0C
F5
E6
EB
F3
F6
15
F4
FF
0B
05
05
F8
F3
FA
F6
EA
0D
07
F7
0A
05
0B
F8
F5
11
0E
F9
EA
FC
FD
FA
0C
0D
0B
F7
F7
01
0E
FA
0F
F7
F5
F2
0E
F7
07
F2
F9
EA
02
F3
0A
F7
06
08
07
F5
F5
F3
F5
0E
12
08
0A
FA
08
08
EE
F5
03
01
08
F5
0F
F5
08
0C
F3
03
11
F1
0B
08
EA
0F
F7
F0
EE
0D
08
F5
F1
F3
0B
FD
ED
EA
F5
00
0E
ED
00
07
01
0A
07
16
FA
11
05
0D
11
F8
F5
F1
F1
F8
F2
F7
00
16
FD
FB
00
11
07
F7
F8
F4
06
F5
FC
05
F6
F3
05
05
EA
0C
11
F5
05
F8
02
F2
05
0D
0F
05
F7
03
00
FD
06
EB
F8
0B
0E
05
0A
0B
0F
05
FA
EF
12
07
ED
0F
0E
F5
12
F9
0C
0C
EF
F3
0D
F5
FC
06
FA
0C
05
07
FD
03
EA
0D
01
F7
F4
EF
F5
EF
F0
F7
E9
0C
EE
F5
FB
11
FD
E9
EB
F8
F2
F3
F3
0C
0C
F7
07
EE
F6
F2
0A
0A
DE
F3
06
F5
0D
0D
FA
F7
0E
0D
0F
07
11
03
11
15
0C
0B
02
11
0A
0D
0E
F0
02
F3
F5
E9
F2
02
F9
0E
F5
F5
F5
F4
0B
EF
F1
F3
ED
12
F5
F1
F7
0D
01
0D
0F
F3
06
F1
F9
03
08
0F
FF
07
F9
EF
F2
F4
08
0F
07
F2
F8
F1
0E
07
0D
12
0B
FA
05
F9
1A
11
F5
EF
FB
12
F5
05
F5
F3
0F
F4
EA
08
F4
06
F2
F9
03
07
07
12
06
11
F9
F5
F2
FC
12
0D
F6
FA
EF
F2
15
03
0E
EE
0F
0F
11
EF
05
E9
FF
EE
15
FA
05
06
F6
0E
E9
F5
16
0E
F8
0B
FC
ED
05
FF
F8
EF
07
0D
F3
06
0E
0C
0C
0D
F3
06
0C
05
0D
F5
F1
F9
07
F3
0D
16
F7
0F
07
03
11
08
0F
F9
F7
F5
0D
F3
0D
0B
EA
F8
11
F3
05
0C
0D
EB
11
F1
F3
0C
E9
F3
E9
0C
0A
0B
0A
F5
F7
F2
F5
06
06
0F
F7
F1
F3
0C
0D
11
FA
0A
F1
EF
F7
19
F4
FC
F2
F2
0A
EB
15
06
F1
F7
0E
F3
16
0A
0B
EF
ED
0C
0D
0C
1A
F7
12
F7
15
0F
07
ED
F6
19
F1
F5
0D
12
F9
F3
F0
F0
EF
0F
11
E4
15
19
15
0B
F8
0D
05
0F
1E
0F
E9
07
F2
15
EB
0B
05
FA
07
11
F3
11
F2
F0
F4
0A
0E
EA
03
FA
0D
EB
EF
0B
EB
0B
F1
0E
11
0F
F9
0F
E6
0E
07
EF
EB
16
FD
F3
0F
F5
FB
16
15
0F
ED
00
0D
01
F5
07
0C
F8
16
F3
F3
19
F0
05
06
15
F6
F3
08
F2
0D
EE
F8
EA
F7
03
E4
0F
F0
06
02
11
07
F7
EF
0D
05
0D
05
19
F9
EA
0C
EB
E4
F9
0E
EF
F9
FA
F3
0C
0C
F2
F5
EE
11
F3
F8
0F
05
11
E6
0F
F3
EB
16
E6
F0
FD
0F
06
F9
F5
F5
EF
FA
EB
11
15
FF
EA
0E
0E
FB
FF
0C
03
01
F8
F1
11
08
F3
0E
0C
F8
EE
0D
E9
11
FD
12
F5
01
08
12
19
15
0C
19
EF
E4
16
19
F8
F7
0D
F5
FA
07
0C
ED
F3
06
0E
F3
E9
F3
F8
E9
F4
F0
F3
F1
EE
15
0E
0F
F5
FA
ED
FA
0D
F5
0B
EB
F1
FD
E6
F8
F1
F7
F2
01
F5
06
FD
F5
EF
FB
F9
0C
F1
08
15
F0
0F
F3
F5
FB
0F
01
F8
F5
0A
03
F8
E9
11
F5
01
0D
1A
F7
F8
0D
16
12
0F
16
F5
06
02
02
F2
07
0F
ED
F2
06
F5
EE
F4
EE
F7
F4
0F
0F
F5
EA
0C
F5
F3
F3
11
0D
19
F4
F1
F6
F1
F7
0A
0D
0A
0B
0A
07
EF
F4
E9
1A
0B
EA
1A
08
08
0E
12
F5
0D
ED
11
FA
19
08
F5
F8
02
F9
F8
03
15
E9
F7
F1
06
FD
F8
03
FA
DE
11
FA
E9
F7
F7
0F
08
F3
0E
ED
F8
EB
F8
E9
05
0D
0E
16
19
08
F1
FD
12
F5
F4
ED
08
FD
F5
F0
F2
08
0E
F7
F2
F0
1A
01
E9
16
F1
0D
12
ED
0A
0E
FA
F3
15
08
0A
0D
EB
FC
F4
F0
11
F5
0A
06
0F
EE
E9
F1
11
FC
0F
1A
0E
0C
0E
11
E4
F1
0F
12
F0
0E
0F
12
0D
F8
16
05
05
F8
0B
15
11
FA
EE
F3
F5
F3
FA
0C
F0
07
FF
12
E9
F2
F3
12
F5
EB
FD
E4
0F
02
FD
EE
EE
05
F7
0E
11
E9
EF
0C
F2
11
0C
15
00
0A
EE
0C
16
FA
F7
0B
EE
06
F7
0E
0B
F4
0F
0D
07
FC
15
F4
F7
08
F1
F5
05
11
0C
0C
11
FD
F2
0A
0E
E6
F2
0F
F8
F5
0E
0D
0E
08
F5
00
0B
12
FC
F0
07
0C
F8
F8
0B
0A
07
0F
FB
08
0E
0B
EF
F6
0F
12
19
06
FB
F2
F5
0E
F8
F2
F3
06
F3
12
F0
FA
FA
F5
F8
EF
16
EF
19
08
F3
0D
ED
01
03
0E
F5
05
EB
F3
F5
F4
0B
12
0A
F0
19
0D
F1
F5
16
0E
16
05
F6
11
F6
0E
FA
ED
F0
F8
06
0A
FD
FB
0C
F2
08
02
F7
0A
15
F9
FA
0F
1A
FF
0F
F2
15
EB
16
F6
ED
F4
F3
08
ED
EE
F8
EF
E6
0A
08
EF
F3
0B
F8
FD
15
08
F7
FA
F5
F9
EA
F8
16
12
F2
05
0B
F5
0C
06
0C
EE
19
EF
EA
F3
F9
ED
ED
F9
0A
EE
EE
16
0D
0B
F7
F4
EF
EF
0F
03
0C
08
08
11
F6
0E
0D
FA
00
F9
E9
05
05
0B
FA
08
FD
11
0E
0F
08
F2
F3
00
05
FA
F9
F9
F7
0A
F3
0B
F2
F6
F1
08
ED
F8
15
0B
F9
F9
F0
0E
F2
11
EA
F3
F2
08
F7
F1
F0
FA
F3
EF
0F
F1
0B
0C
F3
19
ED
0C
15
12
FA
0F
F0
F3
15
0D
02
0F
F7
F6
0C
EB
F3
F4
0F
E9
E9
F5
11
06
12
05
07
08
F0
EE
FC
EF
EE
16
F9
F5
08
EE
FD
F2
F6
07
0B
08
0A
ED
E9
1A
F5
F3
12
06
0E
FD
F3
EF
15
0E
00
EE
F8
F7
F4
07
0A
0A
F7
11
F3
FA
15
EB
0D
08
0E
F5
F5
FC
ED
11
11
F7
07
0D
E9
12
0C
F1
15
F9
12
F3
0B
F3
0B
0F
F2
06
03
F5
0E
11
FA
F5
F7
0C
0A
0E
EE
0D
07
F6
E0
0D
E6
F5
E9
F9
F6
FD
08
F5
08
06
08
11
F6
EB
F1
0A
0D
FF
11
0F
EB
07
F5
08
0A
08
0A
F0
F7
F5
F3
07
F0
0C
E9
FD
0E
F6
F3
F4
05
FD
01
F0
03
FA
F4
FA
02
0C
03
07
F5
F5
FF
E9
F0
F5
12
FA
05
F4
05
F4
F7
ED
03
11
0D
F9
F3
07
08
FB
FA
F3
0E
0C
F5
F8
06
05
EB
F4
0D
F7
F9
07
16
FB
F7
0C
02
F3
07
F8
F8
F3
FC
F3
0A
0D
F2
19
06
06
0E
F6
FF
0D
0F
06
00
ED
E9
F4
FA
FF
15
F8
FD
EE
0B
0C
02
F7
F0
F5
F5
F9
1A
F8
F3
EA
0E
0F
FF
15
0C
16
EF
F1
E9
0F
0C
F5
0F
F1
0E
F9
0E
0A
EE
08
11
F9
F4
03
F0
F7
FF
F7
F2
F1
0A
0C
0E
0B
16
F9
EE
11
02
07
F4
03
19
15
15
F0
0C
0F
EA
EF
0F
F5
19
F7
EB
F2
EA
06
FA
11
E9
F3
E4
0E
0B
05
E6
12
ED
19
EF
EF
1A
FC
FD
FA
0B
FA
07
ED
F5
FA
EF
0B
EE
F3
0C
1E
FD
08
F0
F5
FA
15
0B
11
EA
F8
F8
0D
0F
06
05
0B
EF
EB
0F
0D
0F
ED
0D
F5
FA
07
FA
F2
08
0A
EA
16
F2
F5
0E
EA
15
F7
07
F6
FD
FC
0B
E6
03
F1
0D
1A
12
F2
12
05
12
0E
F3
08
F5
F2
F7
EA
ED
06
12
07
06
0E
EA
05
F8
07
F7
07
0E
0B
EF
11
EF
07
06
11
F7
F3
F5
0A
F6
F8
FF
F0
F3
FD
F7
F5
F2
0C
01
EE
1A
FA
11
F6
FF
0F
FD
F3
EF
FD
0F
15
EF
05
08
EE
16
11
05
EE
ED
0B
EF
F7
07
0E
ED
F5
EA
05
05
11
0C
15
02
12
EF
E6
07
F8
EF
F8
F3
F1
11
EE
F0
0D
E6
F4
0F
F4
EE
F5
0A
F9
FB
12
F9
E6
1E
11
0D
07
ED
EE
FF
0A
F4
06
0B
0D
EF
F1
F6
0B
0F
11
12
0D
0D
1E
0E
F7
0B
FA
11
07
12
12
F3
F7
0F
07
0A
E9
ED
06
0C
0B
F3
EB
02
F0
0F
0F
F3
19
1E
F9
0F
F8
19
EF
F9
FD
0F
0B
0C
E6
16
0D
15
F7
EE
F0
0D
EE
EA
FD
0E
11
EA
FF
11
F0
0A
F5
F2
08
F3
ED
12
03
F4
F9
EB
E6
08
12
0C
1A
0D
F3
15
F1
11
08
ED
0B
EB
FA
F8
0F
F4
01
0D
03
0C
06
FB
F4
F3
0D
0E
0C
16
0E
0E
F6
F3
F3
F8
0B
0D
F7
06
F5
0A
F5
0A
0A
0C
F7
0C
12
12
F3
F1
03
0B
F5
11
15
05
F1
ED
15
0F
0E
F8
F7
16
11
15
F2
0E
F6
F9
F8
EA
03
F3
F0
F5
FB
ED
E9
F9
F3
0E
0D
F5
15
08
0E
05
E4
0F
03
F9
FA
12
F3
F6
EB
05
FD
F3
0F
0D
FA
FC
F2
16
0A
EB
07
F5
EF
00
19
16
F7
0A
F6
01
F5
15
F0
0D
15
F5
16
F0
F8
E6
F7
19
F1
0E
0E
F3
EA
F4
EE
00
0A
0B
FA
F1
F2
05
0B
FC
F4
FF
0D
F8
F5
0C
FD
05
F5
0D
F4
F9
F6
E9
F5
FB
15
0B
F7
0E
07
0A
F8
07
F3
ED
EE
06
FD
06
05
F5
0D
05
06
0E
F0
F7
F3
EF
01
0B
0E
15
ED
EB
0E
08
0A
F1
03
F7
F6
0C
FA
F2
F0
F7
19
0B
05
0E
F0
EF
F4
07
07
EA
06
F8
EF
0B
0E
0D
F7
EE
F0
06
FF
F9
0F
05
F4
0D
EE
ED
F0
FA
06
F0
EF
05
F0
FD
0A
F1
12
ED
F3
FA
0D
F3
07
0E
0A
08
0A
FC
F7
07
F5
03
0E
FA
0B
0B
F7
F1
F2
F3
15
FD
F9
FC
F7
06
F4
03
19
F4
F1
07
F5
F9
03
E6
0B
0A
F2
11
EA
F6
F4
05
0C
FA
0E
F3
15
0D
F8
FB
05
0F
F4
11
0F
E6
02
11
07
06
0C
0B
FA
F5
F7
F8
0F
FD
F9
08
F0
06
08
EE
0D
08
11
05
F5
01
F5
F4
0C
12
FB
FC
16
0A
07
12
F1
F2
05
F3
0C
F3
F9
16
0E
0D
0B
0C
F2
F8
0C
F1
F5
EF
F2
0F
1A
0D
F5
F1
0A
0C
F3
F1
F8
EB
0D
07
12
12
EE
F5
F1
03
F2
F7
0D
EB
FA
0F
07
0F
EA
12
0F
F7
FA
F5
16
05
F2
FD
16
0D
05
0C
16
F9
FC
EA
0C
11
08
F0
12
F8
0F
F8
19
EB
F3
ED
16
0B
06
FA
01
11
08
15
08
F0
06
F6
0A
12
05
F3
11
F6
12
F5
05
F8
02
0A
F3
1A
F9
0B
11
0E
F7
0B
07
F3
08
FC
0E
F5
05
EB
FA
0F
19
0E
F2
F8
07
11
F4
16
FB
FA
EE
EB
F4
01
ED
0F
EF
0A
F1
EF
F6
EB
12
F3
FD
FA
16
15
05
FF
16
EB
15
F5
F1
EE
F5
FC
F9
ED
F1
F5
0E
11
0A
02
0B
EA
0A
EA
F2
12
FC
F3
0E
0D
F5
F7
EF
12
FC
F3
15
0F
ED
08
E4
EF
FC
0C
EA
F3
FD
F5
E6
F1
12
19
12
11
0B
F5
FF
F3
F9
07
F6
EE
EA
E9
EE
02
0C
0F
F2
F3
0C
00
E9
F1
E6
0E
F7
F2
0B
F7
F1
05
0D
E4
0E
F3
F5
0A
03
0C
F5
F7
02
F0
08
05
FA
F5
0B
02
07
0B
EF
06
EE
0E
F2
0A
F4
F7
02
F4
FD
0C
05
F5
0E
F8
06
F5
11
F5
0C
0B
05
F9
05
F9
0E
0F
07
0A
F1
F2
FA
0C
05
11
F3
EA
FD
F0
FD
F6
EF
E9
06
07
F9
F9
07
0B
0A
F8
F8
F3
F2
0F
F7
F9
0F
19
F5
0F
12
16
F0
07
F5
0C
FA
0D
F9
F5
F3
F5
F5
F3
07
FD
F7
F6
F9
06
F4
F5
06
0C
0F
F3
05
FD
08
F3
F4
0A
F5
07
F0
FB
F3
0C
FA
0F
F9
F4
0F
0B
F5
12
0C
FD
12
0C
0E
05
F1
07
F7
00
EB
F5
FA
08
F7
F8
02
ED
02
02
02
FD
05
0D
08
08
F7
02
FF
F6
0C
03
EB
03
0C
07
F6
02
0F
08
08
11
FA
F8
03
F5
FF
FF
F7
FA
06
0F
F1
F9
05
0D
05
0E
FD
FA
08
05
0D
07
ED
EF
15
FA
FA
F8
0A
0E
F3
FD
08
F0
16
F3
05
F1
07
FA
F5
F5
02
19
F3
FD
0D
F5
F2
EB
0F
0D
FD
03
FD
F0
0F
0E
0E
ED
00
F6
16
F0
05
F2
0E
0B
F2
0F
0D
05
0B
F3
0C
08
EF
0E
FD
EB
0C
F3
FA
F5
12
0A
FD
0E
15
E9
F9
0B
12
F9
FB
07
15
F9
E9
0C
E9
ED
05
F8
F3
F9
F1
03
12
0D
06
F1
F6
F3
F2
F8
0C
F2
F4
F7
F5
FC
0A
F7
EF
FA
0A
EF
06
F3
15
FA
0D
F5
07
0B
0B
FF
F9
03
FC
EB
F5
11
03
FC
02
F8
F0
0D
05
F8
EB
F1
F5
0C
0C
08
F3
FC
0A
F7
F2
0C
EA
01
EB
00
0A
F1
F1
FB
07
F9
1E
F1
0A
F7
0E
0C
F5
EA
1A
E4
0E
11
0E
12
F9
0F
F5
12
0B
E9
F3
F3
F5
E6
F8
16
02
07
F5
F7
F1
08
E9
F1
F4
0D
0F
FC
F4
05
0E
FA
07
08
0C
FA
16
0C
F8
19
0D
0D
F8
0A
0E
06
0B
0B
F1
F3
08
F7
06
FA
EE
01
FC
F3
F4
F5
03
F2
FB
11
FD
03
FB
05
E4
0A
0B
0F
F7
02
FA
05
0C
F6
00
0E
F3
0B
F1
F1
12
FA
05
F5
F4
05
0B
08
F9
F1
0B
05
11
06
05
07
0C
F5
07
0B
0B
0B
0D
15
15
F0
0A
FD
E6
F9
0B
0A
F3
07
FB
FD
F2
F5
F7
0D
F7
0D
FC
F5
05
E4
05
F5
05
F5
06
F2
0F
EE
F9
08
F7
02
0C
05
F4
F2
FF
07
FA
E0
EE
F2
0B
FB
EF
ED
EF
E6
07
EF
05
0D
E9
EA
06
06
FA
0E
FA
08
FB
EE
11
06
F8
F1
08
0B
F6
0C
F5
F2
15
05
EE
F9
0D
08
08
F5
F5
03
F2
07
F3
F6
F0
0F
F3
0C
06
19
08
F7
0E
07
F3
0C
03
F5
F9
0E
00
0F
00
0A
EA
F2
0E
0B
FD
05
08
0A
12
0D
FD
0A
11
06
0E
FA
EB
F2
F8
F8
EE
F5
00
0B
02
E6
EA
FF
05
F9
F5
FB
F0
EE
F8
FA
12
F5
06
06
F7
0C
FD
06
0D
F8
15
E4
EA
06
06
11
F7
11
F3
11
F2
EF
F5
0B
0D
EF
0B
FD
19
E9
F8
ED
EB
EE
EA
F7
E6
0B
F2
07
0F
EB
EB
11
ED
FC
F4
F9
0C
F2
F7
F0
03
EB
11
FD
05
EA
EB
00
0D
0E
06
0C
0D
F4
F9
F2
08
EA
F5
11
E9
0B
F2
FD
15
EA
F2
F9
F2
0F
EE
FA
F4
0A
0A
0E
F1
0E
F3
E6
16
0F
08
F9
F8
F0
03
FD
0E
12
FD
05
0E
EF
0E
01
F0
0A
F2
0F
0A
07
ED
0D
FA
0B
F1
16
FA
08
0A
FD
F3
EA
0A
03
0E
F5
F6
03
FF
03
0A
01
0B
FF
06
05
FA
0F
F9
F9
F3
11
0B
FB
EF
F5
15
0C
F2
0C
00
03
08
02
F7
F5
1A
F1
F5
F1
F3
F2
08
F9
F4
15
EF
0C
0B
E6
F9
F4
16
1A
E9
EF
FA
F0
05
F3
06
0F
0D
F3
FD
16
03
07
11
0D
F8
11
06
0C
12
0C
F2
F5
0D
EF
01
FA
0B
02
FA
E4
05
02
0D
0C
F5
06
03
F8
12
0D
19
F5
0B
0C
F4
11
F8
07
F3
05
EE
0C
F1
FA
0F
F5
08
F8
F7
15
1E
EE
16
F5
05
0F
FD
0D
EF
F5
03
FD
F4
F8
F5
05
11
F9
16
F3
11
02
0E
05
12
0E
05
FC
0A
EA
FD
19
15
EE
0A
F9
F5
0F
0A
F3
F2
0D
0F
0C
F9
0A
FD
F3
05
F8
01
03
0B
0D
0D
08
00
03
E6
EF
F6
08
07
F3
EF
08
11
08
EB
F7
0D
0C
0E
EF
F1
F5
F2
07
19
F7
0F
EF
F4
12
0F
ED
F3
0C
EF
F1
F5
FF
F5
11
12
F1
1A
F9
0F
F4
0C
FD
F5
0B
F7
F4
11
0E
15
E6
EA
0D
0F
EF
FC
0A
F2
0F
EE
E6
F0
E9
F3
0B
FC
F2
E9
19
05
F0
0B
F3
F0
EA
0A
06
F7
ED
05
F0
F3
11
EF
0A
EA
0C
F7
F0
07
EF
08
0E
08
0E
0E
0C
EE
F4
FA
F4
0F
F8
06
0F
ED
FB
F5
15
F2
06
EB
F9
F3
FC
0A
06
EE
0F
08
F8
07
0D
11
0F
F5
05
FD
05
0A
F0
E6
F0
12
00
06
01
12
EA
0A
FD
19
FD
EB
F4
F3
F5
FA
11
19
0F
FC
15
0E
11
F1
07
F3
08
15
F9
F0
F5
03
05
15
06
EB
05
0F
06
F7
0A
EB
05
EE
0C
15
F8
F8
F8
F5
F5
0C
11
11
F2
02
FC
EF
03
03
03
0A
06
05
F2
F1
1A
FF
0D
0E
08
FA
03
F5
0C
0A
05
F1
F7
F9
FA
FD
F4
05
15
05
EE
FA
F7
F8
F0
00
F5
05
19
F5
F5
F1
F4
05
1A
EE
ED
F5
05
EB
F0
0A
EA
0B
F0
32
16
1E
11
D3
15
12
EE
2B
15
21
E6
EA
19
1E
1A
E0
19
E9
11
26
0D
EA
E9
DE
26
E6
0A
DE
1A
16
19
DE
F7
DE
E4
1A
E9
E6
EF
E4
F3
1E
21
D3
11
26
1A
21
1E
D9
15
41
E4
EA
D3
E0
E4
1A
E0
1E
ED
19
1E
1A
E9
16
15
D9
0E
16
19
E0
EE
ED
D3
41
EE
26
E0
E4
15
EB
ED
DE
19
EE
E4
21
EB
21
1A
E4
0F
F0
DE
1A
EF
EB
E0
E9
11
F2
15
EB
EF
E6
12
E6
1A
ED
11
21
1E
EE
19
12
E9
E6
D3
E4
E4
21
2B
E4
E0
EE
DE
D3
F3
16
E6
F0
FA
1A
EA
F2
E4
1E
19
15
21
F1
EB
32
0A
ED
EE
D9
E4
16
E6
16
E6
1A
19
B0
19
E6
1A
1A
11
1A
11
E0
1E
E9
16
26
E4
1E
EA
E0
26
1E
16
1E
19
19
1A
DE
11
1A
32
E9
16
16
F0
21
ED
E9
EB
19
0E
16
DE
1A
0C
E0
E9
19
1A
21
E9
E6
D3
DE
E6
E0
DE
E4
E0
26
E0
D3
1E
2B
E0
16
0C
19
DE
EF
D9
D9
E6
15
E6
EA
1A
16
1A
E6
F1
21
16
E0
F2
1A
D3
21
F6
19
DE
15
1E
21
ED
DE
0F
EA
26
E0
EE
DE
1A
1A
15
E0
1A
2B
F1
D9
E0
1A
26
EE
E4
D9
1A
16
E4
E0
E9
DE
E6
EA
D9
11
DE
21
0F
19
32
E6
0F
E4
E0
19
16
E4
26
E0
DE
0E
DE
21
C7
1E
E0
EA
21
EB
E0
E4
16
DE
32
D9
E0
EA
E0
1E
0E
EE
E0
21
E0
19
21
E6
1E
EB
1A
E0
19
E9
1E
DE
12
D9
1A
2B
E0
1A
1A
D3
19
EA
E0
1E
2B
DE
26
EA
E0
1E
0D
21
21
11
1E
E4
15
E6
DE
DE
E6
D9
F7
C7
E0
11
0B
19
1E
1A
E4
19
19
EA
15
21
E9
21
1E
16
41
EA
16
21
E6
E0
0E
2B
DE
21
E9
E4
E9
E0
12
DE
D9
EE
16
D9
26
ED
D9
21
0F
26
1A
E0
F5
E6
DE
1E
FD
12
1A
DE
E4
0F
21
1A
16
F0
19
1E
0A
E9
E4
D9
ED
F3
DE
E0
E4
0F
1E
1E
E6
12
11
D9
E6
E9
E4
32
E0
21
C7
19
19
E6
E9
2B
E0
E0
DE
D9
26
D9
E6
E6
E6
1E
12
EE
21
D3
C7
1E
E9
DE
EE
E0
DE
E6
1E
DE
DE
26
E4
D9
E4
1E
1A
26
E4
16
E0
E4
F2
F2
1A
E4
D9
C7
32
19
F7
F1
16
21
15
E9
E9
26
E0
0F
E6
1E
1E
E4
1A
21
1A
1E
E0
D3
EF
0F
1E
D9
15
12
26
E0
1A
1A
1E
E4
D3
1E
DE
E6
19
19
19
D9
12
19
E9
19
DE
D3
1A
D3
0E
0F
D9
EA
F9
1E
05
2B
12
E9
15
E9
19
E4
E9
2B
15
12
21
15
0F
0F
D9
21
F1
1E
EA
19
E6
E6
DE
E4
E4
19
F3
D3
E0
D3
E6
19
EF
E0
19
1A
EA
1A
15
EE
07
1E
2B
1E
19
DE
0D
E0
E6
2B
D9
19
F4
DE
1E
1E
E4
E0
E4
E4
E0
19
15
26
1A
19
12
DE
1E
1E
D3
EA
E0
21
21
E6
EF
ED
2B
EE
0B
E6
DE
DE
EA
21
1A
16
1E
16
12
EE
EB
12
E6
E0
E0
EB
E9
F9
11
11
E9
E4
2B
0E
E4
11
F3
E6
12
19
EB
08
0C
11
0E
21
E0
15
D3
E0
1A
E0
19
E6
21
E0
EB
E0
E6
D9
E6
19
11
32
E0
1A
EA
D3
16
E4
16
E0
19
1E
0B
1E
E9
E9
E4
2B
12
E4
19
E0
12
21
E4
0F
C7
1E
1A
19
16
15
26
21
DE
EF
19
26
E6
16
26
E6
21
19
1E
1E
12
D3
1A
1A
16
1E
19
21
1A
2B
26
E4
DE
26
E9
D3
0C
21
15
E4
26
D9
2B
E4
E6
E4
16
EB
32
E0
DE
E6
EA
21
16
26
D3
1E
F0
0F
E6
0F
2B
1A
D9
19
F5
41
EA
19
EE
32
ED
E0
F4
E0
21
DE
11
E4
D9
E6
F2
E6
11
15
0D
E0
E0
21
1E
F9
EA
F5
1A
E6
D9
1E
1A
F0
1A
15
ED
06
EB
0B
E6
E0
1E
F2
21
D3
1A
19
19
1A
E9
16
11
05
2B
26
19
1A
19
1A
19
16
11
F0
DE
0F
15
0F
E9
DE
0D
F0
F0
B0
E9
0E
F2
1A
D3
EE
E9
D9
D9
05
E6
21
0D
F0
E9
1A
16
E0
26
D9
E6
E4
ED
15
1E
1E
E6
1A
E9
D9
E0
1E
0D
21
21
15
E6
F5
D3
1E
E0
EA
26
E6
19
EE
E0
F5
15
E4
21
19
E0
D9
E0
21
1E
E0
DE
1A
E4
EF
E6
DE
E4
0C
E4
B0
D9
16
E0
1A
E0
1A
EA
DE
1A
16
1E
E4
19
19
D3
19
26
1A
EA
1A
F1
26
19
E6
26
EF
1A
19
2B
21
16
E6
19
08
E9
19
E4
F3
2B
16
12
12
1E
19
F3
EA
E9
F5
E4
EB
EA
F4
0A
D3
05
41
EB
19
E6
26
21
F0
E6
F6
12
EA
0F
DE
EF
DE
16
0D
FA
ED
E6
EB
19
E6
D3
EA
1A
E6
EA
EB
1E
EA
E4
0A
D9
16
F4
E6
0E
1E
E4
15
DE
E4
E9
E0
21
16
1A
1E
1E
E9
E0
0C
E9
19
E9
EE
E9
E0
1E
E6
E4
D9
19
21
12
DE
E4
E6
EE
EE
0E
E0
E9
19
21
0F
DE
F0
26
DE
21
1E
E0
1A
E4
F5
D3
D3
F2
D9
21
26
26
ED
19
DE
EA
12
D9
1E
15
2B
2B
D3
DE
12
1E
E0
EF
E0
1A
C7
1E
19
1E
DE
11
F2
1E
2B
19
1A
E4
E6
E4
0B
E0
E6
E0
E6
EB
DE
21
1E
F4
E4
E6
1E
0C
15
E4
19
F6
E6
EA
E9
0E
E0
12
32
0A
2B
19
1A
E0
2B
EB
1E
0F
26
16
E0
1A
E6
2B
DE
E6
E0
1E
1E
1E
21
EA
21
32
E4
E6
19
1A
1E
21
1E
1E
D3
16
1A
E9
1E
ED
E9
EB
32
19
1A
1A
32
1A
E9
19
1E
16
E9
D9
2B
15
EB
E6
D9
F0
26
E0
E0
EB
16
15
26
2B
E4
DE
D9
15
12
21
21
E6
DE
ED
19
21
2B
E6
EB
1E
E4
15
19
21
D9
21
C7
1A
DE
1A
E4
E6
21
15
D9
EE
21
E4
D9
1E
1E
2B
21
EB
1A
1A
1E
21
1A
E9
1A
DE
D3
1A
32
11
21
E0
32
E0
1E
16
2B
0B
0D
E9
1A
E4
21
12
E4
D9
1E
11
19
F1
D9
0F
E6
15
0F
E4
21
21
D9
19
1E
E6
21
EB
1A
E6
DE
E9
DE
D9
FB
12
16
E9
0A
16
D9
21
2B
19
E0
E6
19
1A
26
1E
15
32
D9
21
F5
11
ED
DE
E9
41
21
ED
19
1A
26
DE
D9
E4
E9
15
0F
E0
16
2B
1A
E0
0D
0E
26
1A
1E
D9
16
1E
D9
E6
11
1E
15
DE
16
21
1A
21
26
F2
19
F5
E4
21
C7
21
D9
2B
E4
11
DE
F3
21
1A
19
E0
21
0F
2B
1E
1A
1A
E6
E0
15
15
E0
11
21
41
15
D3
2B
26
E4
15
D3
E6
1E
DE
21
E4
E4
1A
32
16
19
E0
D9
DE
F0
0F
E6
D9
E9
E4
15
19
0E
15
E6
16
EA
15
E0
19
1A
D9
41
21
EA
F2
C7
F3
E6
E4
2B
0F
E6
F4
0D
EF
0D
11
16
F5
15
EA
EB
1A
DE
0D
D9
E9
19
F7
D9
0C
11
E4
E6
E6
F1
E0
41
15
DE
D3
D9
F5
1E
D9
DE
E4
F2
21
D3
0C
EE
21
D9
D3
EA
26
1E
C7
26
1A
1E
C7
15
1A
E9
EB
0B
E4
1E
19
E4
19
E4
19
D3
E0
19
2B
1E
E0
C7
1A
E6
E4
26
DE
E0
12
D9
1A
0C
21
E6
16
E0
11
E6
16
ED
E0
E6
15
1E
2B
E4
DE
EE
DE
1E
1E
26
DE
2B
D9
1E
1E
DE
21
E6
E9
D9
E0
EE
E9
0F
06
F9
F5
0B
11
F9
03
F1
F3
0A
F3
F5
EA
08
F7
0B
07
FD
FB
F5
F9
F8
EE
FB
F8
F2
FD
F5
EE
0A
0E
FF
F3
0D
0E
F3
F5
F5
05
11
03
F1
F6
0C
F9
F2
F8
0F
19
FC
E6
15
F9
0A
0A
0F
F0
FA
0F
ED
0D
0F
F5
EF
0F
F4
0B
EB
12
07
F8
EE
05
F5
0F
F0
FC
F8
0D
FA
F7
06
F7
07
F8
F9
0E
07
15
FC
F2
EE
FB
EE
11
F5
01
02
0F
00
00
F2
F7
F5
FD
EF
0E
0E
08
07
FA
EB
0C
0A
F3
08
0E
12
11
16
FB
F7
F0
F2
F4
12
08
FB
00
F0
EE
FF
F4
0E
0C
0E
0A
0B
F4
01
0C
0C
F6
07
F8
1A
0E
0C
F5
0F
0B
15
FA
08
F7
F0
F7
06
08
F8
F3
FA
1E
F3
F9
F8
F5
F6
0E
12
0D
06
11
0F
EB
FD
0D
0E
11
F0
EA
07
EB
FF
0D
F4
F5
F7
06
F7
F8
FC
F0
EE
0F
0A
0E
07
03
FD
0B
15
EA
05
FA
F5
F0
0D
01
08
EF
F2
05
FA
F6
0C
F9
F4
F1
0D
E9
0E
ED
03
FA
F3
0A
05
08
07
F3
F7
F7
F6
0F
11
08
19
19
0D
EB
0B
19
08
15
1A
E6
05
0F
F7
EE
F6
EA
0F
E9
FC
12
0C
EF
FA
F5
FA
FD
F2
F7
0B
06
FA
0B
EF
F1
EF
EF
0B
0A
EE
0E
15
15
F5
F0
F3
12
F0
0E
0F
0C
0E
0E
08
0F
0F
F9
0A
EF
0F
0A
F7
07
F3
03
F5
06
ED
03
F3
07
05
11
F9
F8
FD
06
05
07
0D
F0
F7
0C
0C
05
F3
12
07
07
03
FF
F3
F3
F4
0F
EB
0B
F9
F3
F5
F0
F5
F3
F5
0D
F8
0D
0E
F3
F9
0E
12
FA
F0
21
F3
0C
0D
EB
EB
F0
0B
F9
08
F2
08
08
F9
F9
06
F8
F6
EF
ED
F5
F3
06
0D
F5
08
0E
07
02
F2
02
06
F8
03
07
0C
0D
FA
F2
0D
EE
F1
F3
F9
0A
F5
FD
07
F3
F9
0D
0E
01
F4
0F
08
0F
F9
E4
F9
F9
0E
F7
EA
11
12
11
05
FB
0A
F4
E9
F7
06
1A
EE
02
EF
0B
FD
EF
11
FD
19
0A
ED
F4
15
EA
F6
11
F2
EF
08
F5
F0
19
02
0E
0A
F3
06
F9
E9
F0
F4
F5
ED
0E
F6
01
12
05
F6
F0
F4
15
F5
F5
08
EF
F5
05
0F
FA
F3
FA
EF
E9
0C
0C
E6
F2
EF
EB
0D
F2
05
0F
0E
F5
EA
F8
F5
16
FB
F3
0F
F2
0A
01
0A
F3
F9
08
16
0C
08
FA
E9
0D
05
F3
11
0D
FC
FD
12
EF
F9
F7
03
0D
06
02
ED
0B
0C
F6
EA
EE
F9
F1
F7
F9
0B
0F
0C
0D
FC
0F
05
12
05
F0
0D
F4
0B
11
F1
0C
F6
F2
05
05
11
F4
FB
F5
05
0F
F2
F0
E9
02
F0
05
F4
FA
F1
0C
FA
0D
F7
F0
F5
E4
19
F5
FD
1A
F5
ED
F9
EA
0A
0F
F5
F8
03
FA
0D
F1
08
05
11
F9
06
F7
F3
16
0E
06
07
0F
FC
11
F3
16
EE
12
F0
12
05
0B
15
0F
07
0B
03
FD
0A
12
F9
EF
1A
F2
0D
EF
EF
06
F8
E9
F1
F9
FB
F1
E6
F3
0C
0F
F7
0D
0B
F8
11
0B
00
0D
F5
11
08
12
E9
F0
0E
05
ED
ED
F9
07
EE
11
FF
FD
F1
0A
00
EE
EF
0D
FF
07
02
0C
19
0C
05
0C
06
F5
FA
01
0F
E0
05
0B
12
FC
F2
E4
FD
02
12
FA
0E
F6
0F
F7
01
06
FD
FA
F5
FD
06
F3
FD
05
05
F3
0A
0A
F5
F9
F1
11
E6
F4
00
F5
0C
F2
05
07
00
EF
F6
F2
F1
0D
02
EF
0E
0D
FC
F3
0B
0D
F7
F5
E9
EF
05
0F
0E
E6
0A
F6
0D
12
0F
ED
F3
F5
08
E6
EB
16
0C
EF
05
F3
0E
F9
0F
16
0C
F1
06
FA
0D
07
0F
15
EB
FC
F8
F9
F4
0F
0F
03
F5
05
F8
F5
0E
07
FA
0B
07
F0
EB
EA
F8
05
ED
12
F4
FF
F3
F5
0D
02
0C
0C
E6
EB
FA
0B
11
15
07
06
16
05
EF
0B
F0
0F
12
0D
0E
0A
F0
15
0A
F2
0F
E0
0E
0D
F9
EA
15
11
0A
EA
F6
07
19
EF
FA
08
F7
F4
F5
FB
01
11
F3
F2
0D
0C
02
0A
F5
F6
EA
F4
0D
02
F7
01
F7
0E
F1
0C
F8
F3
12
06
0A
0F
F3
EE
F1
F0
F2
ED
15
F5
FA
12
F1
11
12
1A
08
15
F5
08
0A
E4
F4
0E
FD
F3
ED
12
03
F3
0B
0F
EA
F7
F8
00
0D
F8
F0
F4
F5
F4
12
FA
11
02
0A
12
F0
0C
FA
FC
12
12
08
0C
F3
EF
03
ED
EB
16
06
F9
0F
01
16
F4
FD
0F
15
F4
F5
0E
F5
06
F6
E6
15
07
EE
EA
F6
EF
0C
F9
0F
FB
EB
08
0F
02
0F
F5
F4
E9
0A
0E
F8
FD
F5
F0
0D
05
11
F3
0D
0A
0F
19
0B
05
F1
11
F5
08
FC
FD
08
F4
F5
EF
0B
F1
00
FB
F4
0A
0E
E6
15
19
01
F9
F8
00
FF
05
F8
F1
F9
EF
F7
0A
08
F0
07
06
EF
EE
EF
0A
0B
0F
0F
F5
F8
F5
F2
FD
08
EA
ED
FD
F8
06
F3
0E
F7
0A
0E
F1
15
F2
05
FF
12
F2
FD
06
0C
EB
EB
0D
06
F5
FA
0F
F9
EF
15
F0
03
EF
16
F0
05
FA
F9
0A
0E
EF
F7
F5
EA
FF
F9
FD
F9
11
F5
05
0A
F6
02
EB
0D
0D
F9
E9
F6
F5
FB
EF
EF
F5
FC
0B
0E
F6
0A
12
F2
FC
F6
ED
0E
F1
02
0C
E6
05
F3
F4
01
16
0F
EA
0D
FD
FC
0A
EE
11
07
F5
0C
EA
00
EE
F3
07
F0
0F
FD
FC
F5
EE
0C
11
F2
F5
FF
F0
06
F5
F1
0E
08
F1
0C
FF
08
F5
02
07
EB
F9
E9
0E
0B
0E
0F
0A
F0
05
F4
F3
0A
0A
16
F6
08
0C
F7
08
F9
F9
F5
12
F0
F2
00
0B
F4
0C
F5
07
F5
F5
02
0C
0A
F8
FD
F5
07
EA
F2
F7
05
02
08
F5
F6
05
FC
15
F4
F5
12
06
E9
07
ED
F1
F9
05
0C
0C
02
01
0A
FB
F9
0B
0A
F2
F3
F4
05
ED
06
0B
03
EE
0C
EB
EE
ED
EB
FD
F5
F9
0C
11
F1
15
EF
0F
EF
F5
F3
07
ED
EA
01
08
0D
F3
F0
FC
07
EF
F7
07
15
0E
11
F2
1A
EE
05
15
E9
EA
0A
F5
F5
15
F3
FA
0E
0B
00
08
11
EF
0C
03
F0
05
FD
F9
0D
0F
05
F8
12
08
02
05
0C
F0
FF
EB
F3
EF
0D
F0
F0
15
F0
0C
F7
15
08
0F
E6
F4
F9
F7
0A
00
02
06
0B
F3
01
F4
EE
EB
FA
12
F5
05
E9
F0
EB
F7
F3
F7
F9
11
F6
19
12
F1
F3
F3
07
F1
F0
07
EE
F0
05
0A
FD
0E
07
0D
ED
11
05
EB
0F
0E
FC
0D
F9
0C
0D
0C
08
ED
19
F5
F5
F6
02
0C
F9
0D
11
0B
11
E9
FD
03
ED
F0
F9
F9
F4
15
07
0B
F5
EE
F1
FD
F3
F3
0E
0D
F5
0D
03
06
F2
EA
11
FD
F0
01
FC
EA
12
F8
FA
05
06
0A
F5
E9
F3
0D
F7
FF
0F
0F
0D
0F
ED
F9
EE
FD
07
11
0B
03
16
0C
FF
08
03
F5
FF
02
F4
F7
0A
F0
07
EE
15
FA
0E
F1
02
11
02
E9
07
FC
F7
0C
FD
F8
F5
F0
FF
0A
EF
F4
F6
08
05
F4
0F
0B
0F
ED
06
F5
02
0C
0C
EA
F5
ED
08
0C
08
1A
0D
F4
03
05
F0
0E
0E
12
F8
FC
0C
FD
F4
0D
F9
F3
05
1A
F2
0E
FA
11
F9
1A
F5
08
0F
16
E6
12
19
0D
07
15
FC
11
0D
0A
E9
07
F1
FF
F1
08
F3
07
07
08
0F
F9
07
FF
F5
15
F5
FF
F3
F3
02
FC
F8
EF
0A
EF
F8
F5
06
FD
06
0B
07
F9
0E
07
0F
00
0C
E9
FA
0C
F2
0B
F4
08
07
08
FB
F1
F5
F0
F8
F4
11
07
12
0A
0D
FA
F5
0A
F7
FF
0A
0F
F3
02
F7
E9
FA
FA
12
05
11
0D
0A
0A
FA
08
F7
F3
0D
F8
F7
F0
03
0B
F1
EB
F3
05
EE
F4
FA
02
F0
F8
06
06
11
02
FC
0C
F8
FA
F6
0F
F5
FC
EA
05
F5
03
07
08
FA
F1
1A
FC
F6
FA
F8
03
FA
F2
FD
F7
05
FC
FF
0C
03
0A
F9
FB
F5
03
FA
FD
0A
FF
FD
0A
00
05
06
07
EE
02
F7
F5
00
0B
02
0F
06
00
0B
0B
F3
F1
F9
0D
F7
06
ED
F1
0D
0E
F0
0A
08
02
EB
12
0B
F6
F3
F9
07
F9
F7
0E
0B
FA
EF
FB
EF
06
0B
F6
02
F3
F2
16
F1
F9
0E
F3
0D
0A
0E
0F
00
0D
0F
F1
ED
07
F8
00
12
12
F5
08
01
0B
F7
00
F7
05
12
F5
F5
EF
0D
F9
F3
F9
06
0C
05
00
0D
03
FD
FA
0E
0B
0A
FC
FC
F7
00
ED
F9
0D
F0
11
00
12
F9
EE
0E
11
F3
07
0E
0C
FF
F9
F3
07
01
F9
0B
07
EE
0E
0A
05
0E
0B
F2
00
16
0A
FF
F4
08
0C
F8
05
F4
08
0B
F5
02
0A
02
07
EF
F5
F2
00
F5
F5
F6
F5
0B
FD
FA
F2
05
F1
11
F8
F4
11
0F
0C
06
02
12
F3
FD
FD
FF
FD
ED
05
FA
FD
11
07
FA
0B
07
EF
11
08
FC
F5
07
EA
F5
07
F5
06
FC
F0
FA
FD
03
11
0F
F9
0F
ED
0E
FB
0A
06
02
06
07
01
FA
EF
F2
FB
FD
F5
FF
F9
FD
0E
06
0C
F9
01
05
FB
F7
ED
0B
0E
01
F3
05
07
EF
0B
05
FB
F4
FD
0D
F2
0A
05
F7
0D
F1
06
EE
08
0A
FA
FD
F5
F7
0D
06
F5
F5
07
F4
15
F3
FA
16
05
F4
0D
01
F8
03
0A
0D
0F
0E
F9
F6
F0
06
0D
0C
F4
06
F5
F6
F7
F5
12
06
F5
07
0D
07
0B
07
F9
F6
05
FA
F8
02
0A
F7
03
F8
F7
EF
0A
03
FC
FD
FD
07
F2
EE
08
06
F4
07
F9
0E
F5
0A
F8
FC
F2
01
00
FD
07
F9
03
0C
05
05
F3
F7
0E
F8
0E
F9
08
FA
11
F8
EE
F1
03
05
01
0F
FC
F5
F3
0E
EE
11
0F
F8
0E
12
03
F9
F0
05
08
0A
08
05
0A
05
0C
F0
03
07
EF
08
06
FA
07
08
E9
05
FA
05
08
15
EA
0C
08
EF
0A
F9
08
06
0B
0D
0A
F5
FD
0E
0D
03
F0
FB
12
FF
FF
0B
11
0D
11
0E
0B
0D
02
F6
F2
12
06
F6
0B
16
FF
F3
F4
0C
0A
02
0F
0D
F4
FD
07
0B
0E
FD
F0
F4
0C
0A
F5
0A
FF
FB
0D
0F
02
07
F3
12
F5
EF
FC
F5
F9
F6
F5
0E
01
FA
F5
EB
F3
EA
00
F8
0A
F5
0D
03
F9
F6
03
F5
F9
F4
05
F2
06
F5
F1
F5
F9
F3
07
0B
F7
EE
F7
EE
01
05
F9
0C
F0
FA
0D
15
00
F5
05
EB
F8
F5
05
15
F9
05
F3
0F
07
00
0B
07
F4
03
06
F7
FD
0B
F7
F3
08
0A
0A
F3
FC
05
0F
F1
F3
F9
15
EF
F8
FA
F4
F8
F5
FF
06
F9
FC
F3
11
0B
02
0A
FA
F6
07
F8
0E
F2
0A
08
FA
08
EE
08
01
06
F9
F3
08
F3
08
00
0F
07
FB
FA
FB
00
F5
F8
FD
FA
05
FA
07
02
EE
F2
0D
11
F5
0D
0D
F5
0E
F4
0F
FD
00
F5
05
F5
F6
08
F3
08
08
F0
0E
0A
07
EF
F8
0C
11
08
F1
0F
F3
F5
0A
F5
F4
05
EF
0E
01
F7
0F
F4
0D
11
0B
F7
0D
FA
F9
05
0F
F6
00
E9
0C
0E
0E
01
FD
0E
05
F5
12
F5
03
FC
FA
01
0B
FD
FA
03
0B
F8
16
F4
F9
02
0B
0E
12
F9
03
0C
FD
0F
05
F3
07
F7
01
F5
03
05
0E
08
0B
F3
08
F8
06
03
08
F0
F9
F9
FA
0E
00
19
00
0B
03
0D
F5
07
FC
F0
EF
F0
EE
0A
FD
08
F5
FA
FC
F9
FB
F8
0D
FC
0B
F9
EA
FD
01
FA
EF
EE
0E
0D
FF
00
16
FA
F4
FA
F5
05
0F
0D
ED
08
FD
F8
07
07
05
FA
0C
FD
F7
08
0F
0B
F5
05
F8
FA
F3
F5
0B
08
06
F7
FB
F3
F5
03
F3
0D
0C
F3
05
F9
08
F9
F3
F2
F6
FB
F5
E9
03
02
11
F5
FF
FC
0A
0B
F5
F7
F4
0E
07
FB
E9
11
02
F5
06
F2
0E
FF
08
0F
FB
08
EE
07
02
FC
F3
FD
FF
0B
F0
F8
08
05
06
08
02
02
E9
12
FC
F1
EA
F3
06
08
F1
08
F5
FA
FB
05
07
F7
08
F0
F0
F5
01
06
F0
0C
FC
F4
0A
F8
F8
0B
FA
16
F3
F8
06
F0
FA
F2
F8
05
0A
0F
FA
0D
FA
03
0B
E0
0B
F7
FD
F4
FD
0E
0A
0E
07
EB
FF
0F
0B
0F
F5
F1
F4
EE
F1
06
0D
F1
0F
F5
07
FA
F0
F4
FF
F6
0B
F6
11
F0
F5
FD
07
0E
FB
FA
0A
FC
EE
01
03
05
08
F8
06
EF
F1
0A
03
0A
F5
0D
11
05
F1
F3
F0
F9
FF
F2
0B
16
F5
02
F5
05
07
EB
FC
F7
F5
FA
0D
12
07
F5
00
11
F5
0A
F1
06
05
F9
FF
F9
08
0A
06
F5
F0
01
F9
12
01
F8
0B
EB
0B
03
03
06
FA
16
07
02
FD
11
07
0D
F1
F5
06
03
05
0A
0D
00
F4
03
11
F4
F3
F7
0B
08
F5
F5
F9
F6
F5
FB
07
F6
FA
07
F3
F9
19
F5
12
05
03
03
F9
0A
FD
F9
F4
11
06
F9
F3
05
08
F7
06
F5
F5
F7
FC
05
07
02
0A
F5
16
F6
0C
16
01
02
F3
FD
06
EE
0A
0B
08
12
F5
F7
0F
07
FC
05
F3
1A
00
F5
0C
F7
FA
03
08
06
01
F0
F8
0D
07
F4
0A
0D
F7
F7
0C
F4
0C
06
F7
0D
FA
F3
F3
F9
06
02
0C
F9
11
F5
F0
F6
FD
F3
03
0A
F3
0D
02
F4
F3
0B
08
0D
05
FC
0B
08
0E
FA
FD
FD
F5
E4
F5
FD
07
0C
02
07
0B
05
F8
0F
12
F8
05
03
F3
02
02
0C
FB
05
03
EA
08
FF
0F
EB
FF
0B
0B
F8
F9
0D
FD
EA
02
F8
15
01
0D
F5
FC
FB
03
02
F5
01
EA
0A
F5
07
ED
F5
F9
05
F1
F3
05
08
03
EF
11
0D
FF
EE
03
EF
0A
0A
FD
02
FD
FB
0D
11
FD
0A
0C
0F
16
08
0E
0A
05
08
F1
0A
F4
F4
0E
FC
F2
0D
0D
FC
15
05
08
15
0F
05
FA
0D
0B
F7
F3
F1
F8
0E
0F
05
F2
0D
ED
F5
07
FF
0E
16
F8
0F
F5
F3
F7
F7
00
F5
FC
F8
FD
02
00
0F
00
FD
F5
15
F9
07
0A
EE
01
F0
F3
F1
F1
07
FD
F2
01
FA
0F
E9
0C
FB
F5
0D
01
F0
0F
05
05
0C
0F
12
0C
F6
FB
F3
EF
F3
0D
05
07
FC
02
FC
FD
07
F8
06
06
08
FC
F9
0B
FD
02
03
F4
08
F6
0B
F0
FA
F7
0A
05
F5
FF
05
05
08
EF
05
06
F8
F8
0A
F3
F5
15
06
FC
F9
0D
F5
F5
06
05
08
08
FA
FF
F0
EE
F8
F3
F3
07
FA
0D
F5
FB
01
EF
0E
02
FD
0A
05
F7
03
E6
06
06
0A
15
03
07
07
0C
F3
0D
FF
F2
0D
FA
F5
0E
F6
F5
01
FB
F5
01
07
11
F8
0B
05
0F
F5
FB
0C
FD
F4
02
08
07
F6
01
FD
03
0A
FB
0D
F8
0E
05
F8
F5
0D
11
07
01
08
07
0A
FA
11
05
08
07
05
07
0C
07
F6
01
06
FA
FA
FF
F7
03
06
F1
05
0C
FB
F5
ED
F2
0A
ED
0E
0E
F9
F9
EE
0D
06
F1
E4
FC
0D
0B
F2
F5
0A
EF
F5
0E
EE
F2
0E
EE
F5
0B
F5
FF
EE
0F
F0
06
EE
0D
F6
F1
EF
08
F5
EA
11
FD
0A
F4
00
FC
02
00
FF
FD
0E
0B
FA
FA
FD
FC
08
01
06
02
FD
FD
06
FF
03
08
08
FF
03
F3
01
FA
06
FC
03
05
06
15
F3
F7
F7
FA
FA
02
F8
06
0D
F5
0B
08
F7
15
08
EE
F5
F9
EB
F3
0B
F5
0B
0D
0B
F7
03
F5
F3
0E
0C
F1
FD
E9
0A
F3
FF
F3
15
EE
0A
07
FB
0F
03
F7
0D
0C
F9
12
FA
FF
0E
F3
0E
EF
EE
F0
06
EA
0A
F3
F5
F5
19
16
EF
0C
07
EA
F1
F8
03
F0
F7
05
F8
05
06
06
16
F8
0E
EF
E6
F3
FA
EB
08
F4
12
F3
12
0D
F0
0A
08
12
12
11
FF
F1
15
F1
06
F8
0C
F5
1A
F5
07
08
0C
03
EB
0E
FC
F8
0F
0E
F2
FA
07
FC
05
02
F5
11
07
F0
01
0A
EF
F4
FD
F1
02
07
F5
06
F5
F7
E9
0C
F7
19
F7
0B
FA
FF
FB
F0
ED
F2
11
F4
0F
EA
F5
0F
FD
15
07
1A
F1
11
F7
11
05
07
15
0A
FC
F7
05
F3
F8
0F
FC
F1
F5
11
11
0E
12
FA
F5
F3
0C
E6
05
03
F4
07
0F
05
01
11
FB
0C
F3
06
07
06
F2
12
F4
07
11
EF
F1
F6
F3
0E
E6
08
00
F6
ED
F7
F5
EF
07
F1
F7
16
08
FB
0F
F1
05
0C
1E
0B
F9
E9
F2
F1
06
0E
0B
0F
F5
F4
11
E6
E6
F9
0E
0C
F0
F7
FA
F2
05
05
FA
11
F7
F3
EA
07
11
0E
0A
FA
11
F5
FB
02
05
11
F2
0D
06
0B
11
EE
F8
F3
0D
11
FD
0C
E9
E6
0D
0D
FA
06
0F
02
16
F2
0C
F5
15
F5
05
00
F7
FB
F8
F7
FF
01
0B
05
07
FD
05
07
0A
01
F8
05
F3
05
FC
F8
0B
F5
E6
07
05
07
05
05
FD
0B
F5
F6
0A
FA
FC
F5
0B
00
02
F7
06
08
F8
EF
0F
08
11
FD
F5
11
11
EE
F1
0A
05
06
05
05
F4
EE
06
EF
FA
02
01
F1
F7
0B
0D
EB
F1
EB
F3
0E
F2
EE
F8
11
F2
F1
1A
F1
F3
F6
F3
11
00
0F
F2
F9
F0
F2
F1
FD
F3
08
0A
F3
F5
F4
08
0A
0E
F7
06
0D
02
F9
FB
0E
08
F6
F5
F2
06
FD
FA
0D
0C
07
07
F4
FD
0F
F5
0C
00
F7
0B
EE
FF
F5
0C
0F
0B
F7
1A
19
05
06
F0
0D
0D
EF
0C
0C
12
E9
0A
0B
0E
11
0F
08
00
0D
0F
12
08
F3
F4
0B
06
03
F9
EF
11
ED
F3
08
F3
F2
F0
19
FC
FD
E9
FD
EF
0D
F9
0F
F8
0D
ED
F3
FB
0F
FD
11
F0
12
16
F6
05
0B
05
F7
0E
0A
EA
08
07
EE
0F
F1
F2
FB
06
F2
0C
07
F5
02
F7
F7
11
15
F9
F7
F1
16
FD
08
F3
0E
00
11
0B
0A
0A
F8
F1
06
F5
0B
0E
02
EF
FA
F2
11
08
0A
F1
05
02
E9
08
12
12
08
16
EB
0B
F7
0E
ED
0B
F5
0B
03
FA
0E
E9
05
FF
0F
0B
F1
F1
F3
EF
F1
08
08
0D
E4
F3
0C
12
08
15
F7
07
0F
05
15
F4
F3
03
F1
F0
0F
ED
F8
F8
0B
07
05
EF
FA
EF
F9
F8
FD
FD
EF
EE
FA
F9
12
EA
F9
07
0B
F5
01
01
0F
02
0D
02
0A
15
F7
01
12
F3
EF
05
0A
0D
F9
0F
12
F7
F7
FA
00
0D
EB
11
F3
EE
0D
0C
0C
F1
0D
FB
F2
F1
EB
12
0C
EF
15
EB
0D
12
F4
F0
F3
07
05
06
EF
F4
0E
EE
F2
0E
0D
0D
F5
0E
08
F1
FF
11
F3
EA
F9
F5
0E
05
01
0F
ED
F1
F6
F5
EE
F6
0F
12
EE
06
06
F7
16
ED
F2
0E
12
F7
05
F4
F3
0E
FF
12
EF
F3
0B
F9
12
F8
0D
F7
F3
0D
EF
EA
0F
12
EE
15
0F
F5
08
F8
F5
EB
EB
F9
11
0D
EE
0B
05
0D
0C
F9
0B
FD
0D
FA
0B
03
05
FF
05
06
0D
05
08
05
F5
F1
FD
15
E4
05
16
F1
0F
EF
F6
07
F5
F5
06
08
EF
F3
FC
08
F5
ED
F6
F6
0E
F1
F1
E9
0F
19
11
05
FD
0A
F7
EF
FB
EE
0E
FD
0E
0E
12
F8
0C
F5
E9
E9
0D
F0
F5
FA
F2
05
EB
11
0A
E6
EE
0A
F4
15
EA
FA
E4
12
11
F7
F3
05
E9
F1
0B
F9
FD
FC
F4
F3
F5
F9
0B
E4
11
F3
02
FF
F0
EE
05
0A
05
FF
EE
FB
0B
08
F0
0B
0F
0B
EE
0B
0D
F5
02
06
11
0F
12
F8
F3
E6
F5
0E
11
F9
FD
07
EA
05
08
05
12
0D
03
FA
0E
F9
06
F7
F9
06
01
0E
ED
07
FA
F3
F4
07
0E
0C
EE
03
05
FA
0E
06
F7
F9
0E
F8
03
FD
0B
F9
05
01
F7
F3
03
F7
F3
F7
F3
FD
1E
FD
0D
0F
11
0C
08
FA
1A
11
F5
EB
F9
0B
F0
03
EF
F3
19
F0
06
F5
07
E4
0B
05
EE
F3
0B
0A
0C
FF
FB
F2
0E
07
F5
0D
00
0F
0B
0A
EF
0E
07
F5
0A
0D
11
FF
05
F2
0A
FB
01
05
FF
0A
FD
F0
FA
0F
FB
F2
07
02
FD
FF
F5
F4
0B
02
FA
F5
05
02
0A
FA
01
0F
F7
07
05
F9
F8
FD
0A
FA
F3
07
F5
FA
0A
EE
0C
F3
15
EF
FA
05
ED
F8
0F
0B
EE
0D
EB
07
0B
F2
ED
E9
F2
F3
08
15
07
F4
F5
0D
05
0D
F1
08
F5
FB
08
16
0E
0E
0D
F3
F7
15
EF
EF
05
0C
F3
F6
EE
0A
08
0F
19
F5
F3
1E
F4
FF
F9
08
F9
08
08
16
1A
FA
F4
16
0D
F9
FD
F0
0E
FD
0C
F5
F9
00
ED
05
05
05
05
F3
0B
F9
12
EF
0B
FA
F7
08
12
02
16
F7
E9
08
EF
0D
12
0D
F5
F5
07
0C
FA
F2
16
0D
F3
0C
15
07
FB
F0
06
07
F0
FB
FD
F5
0A
11
01
08
06
12
07
0D
F6
FB
08
0E
FC
15
F0
EF
05
F2
07
0A
0E
0D
0A
0C
0C
ED
FD
0F
12
F8
FB
F5
0E
0E
12
08
ED
15
ED
05
0E
05
EF
F4
F2
EF
F3
F6
F5
F7
02
E9
F0
FC
07
FD
F9
F9
F5
F6
EF
ED
E6
0D
F5
00
0A
F0
F5
FB
0A
11
F9
F8
F9
0F
05
F3
0A
F1
06
08
11
E9
FD
11
F5
ED
05
15
12
F8
F7
12
F8
0A
0E
0F
FA
F2
FA
E9
06
F0
EF
EB
F9
FB
0A
EE
0C
0E
F5
0E
E9
08
F5
06
EF
0F
EE
0F
19
08
0D
0A
F5
19
11
F8
15
FD
08
F5
F5
F8
E6
03
F7
05
EE
F3
F5
01
0B
0E
11
F7
E4
15
0F
0E
F8
F3
0B
F3
F2
ED
0C
F5
06
F1
F0
02
E6
EE
03
0A
16
F9
08
FA
F2
0A
0B
F4
03
F3
FA
E9
0A
0F
16
07
EB
11
F3
EF
0C
F9
0D
0E
FB
11
08
F9
0B
FD
F9
07
F0
15
FF
F0
F6
0F
F3
F8
F9
00
F8
F3
F7
FA
F3
EB
07
08
05
0C
F5
F5
07
19
19
ED
07
F8
06
0A
03
06
08
07
02
01
05
06
07
11
FC
02
F2
0F
F4
F5
0E
05
0F
E0
F6
05
F9
EF
F3
0F
11
F3
ED
F3
15
F0
F5
